-27392
23808
-6656
3840
-16640
-28160
-7680
-10240
-14080
-26624
-8704
30464
-8960
-27392
-28928
-30720
-16128
21504
-25600
1280
-21248
-1792
-12544
-12032
-17408
11776
31488
25856
28160
-7168
6656
-30208
-14080
31744
29952
-27136
16128
23040
16640
-16384
23040
27648
21248
-13312
-24832
3840
-32768
-31744
14848
-17920
2048
-5632
27392
9728
3584
-9728
29184
29952
30464
-22784
-5632
27648
-26880
-1536
768
-26112
19456
-20736
32512
-18176
-27648
-28672
-10240
-13056
-16640
-18944
14336
-5632
-15616
19712
17920
7936
0
29440
-4096
28160
7936
-7424
-22272
-23040
28928
19200
28416
-32512
-11008
29696
-16640
-29184
-12032
-25344
